function [Y,Xf,Af] = myNeuralNetworkFunction(X,~,~)
%MYNEURALNETWORKFUNCTION neural network simulation function.
%
% Generated by Neural Network Toolbox function genFunction, 23-May-2017 20:52:00.
%
% [Y] = myNeuralNetworkFunction(X,~,~) takes these arguments:
%
%   X = 1xTS cell, 1 inputs over TS timesteps
%   Each X{1,ts} = Qx9 matrix, input #1 at timestep ts.
%
% and returns:
%   Y = 1xTS cell of 1 outputs over TS timesteps.
%   Each Y{1,ts} = Qx1 matrix, output #1 at timestep ts.
%
% where Q is number of samples (or series) and TS is the number of timesteps.

%#ok<*RPMT0>

% ===== NEURAL NETWORK CONSTANTS =====

% Input 1
x1_step1.keep = [2 3 4 5 6 7 8 9];
x1_step2.xoffset = [0;0.075;0.055;0;0.002;0.001;0.0005;0.0015];
x1_step2.gain = [1;2.7027027027027;3.36134453781513;1.76991150442478;0.708340711882415;1.34498991257566;2.63331138907176;1.99302441454908];
x1_step2.ymin = -1;

% Layer 1
b1 = [-2.4103122516485049331;-2.4753342284525547967;-0.62630818330406290428;-1.2173413338270819839;-1.687468202373625159;0.87417040697996406529;0.84625615540766419009;0.16575771307791489773;1.021313525813856371;1.3883237716652667704;0.17442548980410019221;1.3211506835665498549;0.57996618443504543983;-0.93202669631441137366;1.2314626350915061082;-1.6577774274939098831;-2.0530897108002013063;2.1997848213655735172;2.180669779728563018;-1.4453175466206671373];
IW1_1 = [0.43805448036303323844 0.063184666983094842085 0.027835816106691675664 -1.3392736462710495005 1.5181782408998978351 -0.63855057480804777725 -0.80469833728629758252 -1.2466214106985313848;0.42040515729615129947 -1.1708194728218315195 -0.536731790025776756 0.12305891940184035538 -0.87542459011387219192 1.5662194399689830515 0.21419070953157989812 0.23559273557070595229;0.16105891502875729904 -0.11993914489771320686 -0.97505865883639430969 -1.580095932358085653 0.15927309894641403232 -0.18354335154149772902 1.6612406176722513962 -1.1527862096224488209;0.6567467908374841068 1.0292350480107523847 0.84695072114605562952 0.0051754783464611296001 0.6172211271052930881 -0.055137254179459818659 0.14191899009635128293 -1.1727962161193519197;0.75637166964262758651 0.018440221007218361021 -1.0753813757568999598 0.97546461607198220456 -0.92761922241963534752 1.263585502491487933 -0.76838498578389347049 -0.8478699219234270279;0.43018215758825162354 -0.23016713632742616391 1.9738785447286513186 0.2776789331093535429 -0.23517478905613584117 0.81971061373683640205 0.29875977595182667823 0.13127130998517444471;-0.93114629088862876927 -0.45298508992997521538 -0.3786162045111696739 -0.263507418796667503 -0.6861673891396569136 -0.048955923862277365977 1.1275774190916334483 0.87215203932406781817;0.02420782355694560406 0.44102984477192186397 -0.14636573603859315273 -1.435739265239203144 -1.2533301611627947203 2.1922034903945135653 -0.028687617742473310589 0.072812312625470276828;0.052330953982795788693 -0.22668831563741498325 0.96963730711636286763 -1.41112888852503926 -0.4446849117267517304 -0.24597285262838267106 -0.95873463937132519241 0.24210690464857434478;-0.91457104643704012492 0.22254476803829184584 -1.0882340923448547976 -0.0356730540120994144 -0.11942706611169254249 -0.39000431247143907409 0.0085971823232054954411 -0.56646079333736665262;-0.2255645179796269828 -1.1929704989004239479 -0.88771594584216340085 0.47546484090657814559 -1.2854744022791173563 0.35418093326987420966 -0.080924164631911779666 -0.084176034982334918544;0.64863167648595476678 -0.21115140829236836439 0.94944476897693996786 0.56294935915318988773 1.019253804470690028 -1.7842600627012401571 0.67987957545919230906 -0.49921640890426888237;1.0976682290632178152 0.47967574886917252464 0.42944983282907067679 -0.19691447931819211492 -1.1033837161964148432 -0.093923316964552361341 -0.047683297918463339593 0.62962244654280530298;-0.65139714058588171763 0.14367148221862868773 0.45398911212795750592 -0.75423429952711085189 0.4129090519653089153 -0.15868363539403484985 0.47845232509807117394 -0.2399252559626468273;-0.051628036004730294695 -1.7342987595580401372 -1.7242021736375165997 -0.089117995657956444733 -0.35127493988618346821 -0.1705399378632029006 -0.016492066347702834944 1.4842527464813310978;-0.91434738473360388511 -0.95514504427729418623 0.96156559124293095042 0.90754851599155528241 1.9929591182820689532 -0.25436640284422268321 1.2887311601958266749 -0.72136559862985749625;0.082077604822807140317 -0.52638426672387583771 0.42565576873385485568 -1.1266035241120619936 -0.14402759273551130059 -0.4243381765634274827 2.4117614643622635739 -0.0196119624752200232;1.0320462273118393703 0.73041616903331196831 0.48480054233238190076 0.19848761120048030726 -0.21924309904393771142 -0.3352777877103488291 0.8745043876093926416 -0.34985439365429515934;0.73570491071086263624 -1.886653195031956054 0.55369721034520447134 -0.11422070165534009556 1.0687827230133475354 0.26158847587336969687 -0.42641295750323088276 0.83251899988662514396;-0.55118390279820628219 -0.58083524335007752359 -1.3927815554386713259 -2.1931203240170420443 -0.50065065868651781322 1.1076275743540153762 -0.84317741484673425223 0.79561477893593068877];

% Layer 2
b2 = 0.034597665574009464629;
LW2_1 = [0.25810063534450278233 0.4005891180131047058 -0.26554099261135222232 -0.08795793570487724089 -0.46226582436984675617 -0.54780902944709919389 -0.16138362309465678623 -0.59109624695608742329 -0.047662556957326830676 -0.094317546001453395066 -0.52976754092066380419 -0.66725162351735645139 -0.17028470339857243454 0.37619147664973706657 0.35193669913180852804 -0.5993445199255833522 0.79754680568691882492 0.84092918882224332311 0.43026127691293325483 -0.47622097700425408684];

% Output 1
y1_step1.ymin = -1;
y1_step1.gain = 0.0714285714285714;
y1_step1.xoffset = 1;

% ===== SIMULATION ========

% Format Input Arguments
isCellX = iscell(X);
if ~isCellX, X = {X}; end;

% Dimensions
TS = size(X,2); % timesteps
if ~isempty(X)
    Q = size(X{1},1); % samples/series
else
    Q = 0;
end

% Allocate Outputs
Y = cell(1,TS);

% Time loop
for ts=1:TS
    
    % Input 1
    X{1,ts} = X{1,ts}';
    temp = removeconstantrows_apply(X{1,ts},x1_step1);
    Xp1 = mapminmax_apply(temp,x1_step2);
    
    % Layer 1
    a1 = tansig_apply(repmat(b1,1,Q) + IW1_1*Xp1);
    
    % Layer 2
    a2 = repmat(b2,1,Q) + LW2_1*a1;
    
    % Output 1
    Y{1,ts} = mapminmax_reverse(a2,y1_step1);
    Y{1,ts} = Y{1,ts}';
end

% Final Delay States
Xf = cell(1,0);
Af = cell(2,0);

% Format Output Arguments
if ~isCellX, Y = cell2mat(Y); end
end

% ===== MODULE FUNCTIONS ========

% Map Minimum and Maximum Input Processing Function
function y = mapminmax_apply(x,settings)
y = bsxfun(@minus,x,settings.xoffset);
y = bsxfun(@times,y,settings.gain);
y = bsxfun(@plus,y,settings.ymin);
end

% Remove Constants Input Processing Function
function y = removeconstantrows_apply(x,settings)
y = x(settings.keep,:);
end

% Sigmoid Symmetric Transfer Function
function a = tansig_apply(n,~)
a = 2 ./ (1 + exp(-2*n)) - 1;
end

% Map Minimum and Maximum Output Reverse-Processing Function
function x = mapminmax_reverse(y,settings)
x = bsxfun(@minus,y,settings.ymin);
x = bsxfun(@rdivide,x,settings.gain);
x = bsxfun(@plus,x,settings.xoffset);
end
